TRT-7201-EntropyCalibration2
INPUTS: 3c9cdc9b
667: 3d9fe0d3
668: 3e291891
669: 3e4136fd
670: 3e4136fd
671: 3dbc95a2
679: 3dbc0c44
672: 3d32d5ad
680: 3d91f4b2
673: 3d332c64
674: 3d03042c
675: 3e02bc3d
676: 3e094190
677: 3d06d32c
678: 3d947141
681: 3d85f42e
682: 3d8ee91c
683: 3ccd710d
684: 3da8b0a6
685: 3d8d76ff
686: 3c09da52
687: 3d9eaca2
688: 3d373d50
689: 3c628cee
690: 3d237468
691: 3d5e76b0
692: 3d5f4556
693: 3cf0e3f9
694: 3d8512c2
695: 3d2b83c7
696: 3c141e2d
697: 3db665f3
698: 3d05d99f
699: 3c471123
700: 3d3dd669
701: 3da77d4c
702: 3da77d4c
703: 3cef3df9
711: 3cd0cc08
1009: 3e9d3ece
704: 3d73c0b2
712: 3d44008d
1124: 3e95bbcf
705: 3d2a6284
1125: 3eeef5df
706: 3c21a8a3
1126: 3e87891a
707: 3d83ead0
1127: 3f8b8ba0
708: 3d82c7e5
1128: 3f7e209e
709: 3c95899d
710: 3d57405d
713: 3d8528ae
714: 3d9b7593
715: 3c987baa
716: 3d287242
717: 3d287242
718: 3c496d1f
719: 3d80c9e8
720: 3d3c40e7
721: 3c466d21
722: 3d6e827e
723: 3d883784
724: 3dc64bff
725: 3c9fc9cb
726: 3d529169
727: 3d48f21a
728: 3c136926
729: 3d715860
730: 3d15e2ae
731: 3be2347b
732: 3d3bf4ad
733: 3d9c2da1
734: 3ddd2e3c
735: 3cc025db
736: 3d893478
737: 3d3378bb
738: 3c1cdd31
739: 3de07c28
740: 3d1e3d09
741: 3bc869e1
742: 3d46ce0d
743: 3da86986
744: 3da86986
745: 3cbae3ff
753: 3cb9e899
1010: 3e94ae02
746: 3d72d16c
754: 3d4e3c7b
1085: 3e3ae00a
747: 3d5032be
1086: 3eb4d8d2
748: 3bff24f5
1087: 3e38db80
749: 3d95d8d4
1088: 3f01a2ff
750: 3d8625a6
1089: 3eed7275
751: 3ceba290
752: 3ddc4a07
755: 3dcaa1ec
756: 3dcbcb31
757: 3d131753
758: 3d908fb0
759: 3db04c03
760: 3c123d61
761: 3d795cda
762: 3d267ad7
763: 3c1e3d77
764: 3d23d366
765: 3d622808
766: 3d622808
767: 3d128810
768: 3d944392
769: 3d8b637b
770: 3c5f5234
771: 3d6a02e1
772: 3cfd784a
773: 3be905fa
774: 3d1f0083
775: 3da42596
776: 3dc5c812
777: 3d023f67
778: 3d8a662c
779: 3d8b2027
780: 3c193da9
781: 3d6e5477
782: 3d37c34b
783: 3c2f8ab8
784: 3d34886e
785: 3d8bdd22
786: 3db5eccf
787: 3cd51a9f
788: 3d8a011a
789: 3d94785a
790: 3c28f820
791: 3d61a2ab
792: 3d13d024
793: 3c03ee90
794: 3cf263ad
795: 3d6e28fc
796: 3d9df168
797: 3ca4dd8a
798: 3d85cf5f
799: 3d863046
800: 3c40668d
801: 3d5c0017
802: 3cf3e771
803: 3bb536f1
804: 3d054864
805: 3d5b954e
806: 3d7eb0a6
807: 3c97bc39
808: 3d7ef1e5
809: 3d81e84f
810: 3c05d37b
811: 3d6caa78
812: 3d3ba394
813: 3bd6454f
814: 3d0c5c37
815: 3d8b1025
816: 3d941745
817: 3c7e7536
818: 3d814c18
819: 3d824d84
820: 3bf7349f
821: 3d621cce
822: 3d3c2604
823: 3c1d002e
824: 3cd0781c
825: 3d7ef0af
826: 3d8d7312
827: 3c944270
828: 3d7667d9
829: 3d775026
830: 3c03abce
831: 3d5d1959
832: 3d1d5e8c
833: 3c062b78
834: 3ce7af01
835: 3d5a3461
836: 3d65ab91
837: 3c909038
838: 3d754201
839: 3d828d44
840: 3bd91f48
841: 3d664710
842: 3d4d2c0e
843: 3c63ec92
844: 3cdd04d9
845: 3d5af614
846: 3d6437d9
847: 3c860cde
848: 3d71f76d
849: 3d72006c
850: 3be8c686
851: 3d6972bf
852: 3d1bb31c
853: 3bda7a15
854: 3d0bbe8e
855: 3d761c0c
856: 3d8f0ed1
857: 3c833001
858: 3d64ffa8
859: 3d65017a
860: 3bb432d8
861: 3d822cc9
862: 3d5a739c
863: 3c387f2b
864: 3d0e4371
865: 3d87d13f
866: 3d87d13f
867: 3c5fc9ed
868: 3d47d159
869: 3d6afb15
870: 3baff453
871: 3d82ebc2
872: 3d594b11
873: 3c368bc4
874: 3d1ac6da
875: 3d84712a
876: 3d84712a
877: 3c486a06
878: 3d4c606c
879: 3d47ec5e
880: 3bc27f0e
881: 3d7c9499
882: 3d2c1e61
883: 3bea09d2
884: 3d036b2e
885: 3d8b135d
886: 3d8b135d
887: 3c47d762
888: 3d3707c8
889: 3d3799a2
890: 3bb0becb
891: 3d5dd174
892: 3d251e3b
893: 3bd7c0ef
894: 3cfa5068
895: 3d82eb53
896: 3d9d0fee
897: 3c633a45
898: 3d4d4f38
899: 3d39c194
900: 3bd85df9
901: 3d7dfa99
902: 3d4bcaba
903: 3c1f74be
904: 3d075093
905: 3d8fa03f
906: 3d8fa03f
907: 3c95db32
908: 3d4ff541
909: 3d4b3269
910: 3bef7b53
911: 3d6ac80c
912: 3d47434a
913: 3c322737
914: 3cf52471
915: 3da506a0
916: 3da506a0
917: 3c6a94d6
918: 3d4fe296
919: 3d5d2398
920: 3bbb1d59
921: 3d6f8793
922: 3d4eb2da
923: 3c140c1c
924: 3d133655
925: 3daa9c5b
926: 3da91a44
927: 3c97959d
928: 3d7b7fdd
929: 3d6eba25
930: 3be24688
931: 3d95be72
932: 3d58cd90
933: 3c19a55e
934: 3d315c64
935: 3d9b8fd5
936: 3da8822a
937: 3c997c1c
938: 3d6d3522
939: 3d6e9737
940: 3c078816
941: 3d8ee152
942: 3d54e039
943: 3c1fa718
944: 3d25e6f6
945: 3d9ba65d
946: 3da426a0
947: 3c8de416
948: 3d676d52
949: 3d6a203a
950: 3bc04bbb
951: 3d8622f6
952: 3d79d99f
953: 3c1fdfcf
954: 3d2857d7
955: 3da19c0e
956: 3da8a067
957: 3c909d62
958: 3d73f3c4
959: 3d6e14d3
960: 3bd4d2b1
961: 3d9822e4
962: 3d35271e
963: 3c0647a6
964: 3d4896cd
965: 3daf3f6c
966: 3db71998
967: 3cafb3de
968: 3d703a04
969: 3d8ee4fe
970: 3bc179ee
971: 3d933777
972: 3d5515b3
973: 3c51d90a
974: 3d836762
975: 3dc0eb1d
976: 3dca499b
977: 3cb22bcf
985: 3cac6698
1011: 3f444926
978: 3d7e16c9
986: 3e2482c6
1046: 3f4ebbd2
979: 3da6bc59
1047: 3f8a87fa
980: 3bb11292
1048: 3f33f681
981: 3dcf5957
1049: 3f33715a
982: 3d38c693
1050: 3fa45945
983: 3c8e4c3f
984: 3e73adb0
987: 3e91a8a0
988: 3df19ea4
989: 3d598ccf
990: 3db826a3
991: 3da94b0b
992: 3c3f17f7
993: 3da86a5f
994: 3d068301
995: 3bc4264e
996: 3e31a56b
997: 3e4d002c
998: 3ded04e0
999: 3d649f5d
1000: 3dae9ac7
1001: 3d86b6dc
1002: 3bf065e8
1003: 3dc2a886
1004: 3cd2f6db
1005: 3bc2dc54
1006: 3e270a97
1007: 3e0d984e
1008: 3e00c256
1012: 3f39ddc6
1013: 3f3e24b2
1014: 3fc8adcd
1015: 3f4430b3
1016: 3fc48b0e
1017: 3fe6e33a
1045: 3fe2e04a
1051: 4040466e
1052: 4040466e
1053: 4076152a
1054: 3f846e84
1055: 3f8483f1
1056: 4055069a
1084: 40540180
1090: 405ce9ac
1091: 405b71b1
1092: 404ecbd5
1093: 3fa527a3
1094: 3fc0f062
1095: 4074606a
1123: 4073ea08
1129: 4088a98a
1130: 4089bce2
1131: 4091757e
1132: 4083815a
1133: 3fd136a5
1134: 400b2e0e
1162: 400b2153
1163: 419814c6
1191: 4196ac38
1192: 43848fcb
1193: 434792b7
1194: 42921cbf
1195: 42921cbf
OUTPUTS: 42921cbf
