TRT-7201-EntropyCalibration2
input1: 3c9cdc9b
343: 3d2257bc
344: 3c4f2e84
347: 3c1d6dfe
348: 3ce0ebce
349: 3d844f66
352: 3d2278f2
353: 3d3bb02a
354: 3d03e053
355: 3d300167
356: 3d00b8ce
359: 3d00e631
360: 3c581a36
361: 3d1c0026
364: 3d002c59
365: 3ccba282
366: 3d1f933e
367: 3d4af7a4
368: 3d375976
371: 3c581bbe
372: 3bbdf057
373: 3ce2132a
376: 3cc2ebd1
377: 3c958e32
378: 3d132c9c
379: 3d364be3
380: 3d258d46
381: 3c8fd649
384: 3c639a46
385: 3bb7aeaf
386: 3c85c941
389: 3c80a378
390: 3cb0ccf2
391: 3cc972cb
392: 3c93e77c
393: 3c0cd13d
396: 3c0cd13d
397: 3b1d4da8
398: 3c95b9ad
401: 3bf43707
402: 3c0586c1
403: 3ca1cd13
404: 3d46152d
405: 3c8e90d6
406: 3bf03f34
409: 3c012453
410: 3af33484
411: 3c5150cc
414: 3c0c7922
415: 3bc1e8b2
416: 3c8553cc
417: 3d12e9f1
418: 3cec049c
419: 3c13321f
422: 3c13b767
423: 3b88d73f
424: 3c435041
427: 3c52f78f
428: 3c7e4183
429: 3ca4f424
430: 3c2c5de1
431: 3bed016f
434: 3bed016f
435: 3afc0525
436: 3c83ba63
439: 3c836369
440: 3c0d659f
441: 3c835299
442: 3c46ae99
443: 3c4dfb48
444: 3ba96cc3
447: 3ba9baa9
448: 3ab523ab
449: 3c4861e9
452: 3c2ae41f
453: 3be87e3c
454: 3c755d37
455: 3cd73ef9
456: 3c8affe9
457: 3bcce53a
460: 3ba7f1fa
461: 3aa0461a
462: 3c0bbcb2
465: 3c14226b
466: 3c1d352a
467: 3c96d32a
468: 3cefa8e6
469: 3cb97011
470: 3beaa14e
473: 3bf30857
474: 3af8a113
475: 3c368b25
478: 3c7047af
479: 3c481d4c
480: 3c860905
481: 3c46f8a2
482: 3c01bcfa
485: 3c0d1fd2
486: 3a952c25
487: 3c3a184d
490: 3c70bc4f
491: 3c12ffd3
492: 3c853587
493: 3cc08b8f
494: 3c917305
495: 3be8784e
498: 3c07b7fb
499: 3a9a82d0
500: 3c24bb77
503: 3c10d24e
504: 3c2cfd06
505: 3cc0703c
506: 3cf04cc9
507: 3c952397
508: 3c166c8e
511: 3c07edaa
512: 3a85ede5
513: 3c6bbbfa
516: 3c6daf3c
517: 3c99130a
518: 3c910af0
519: 30810204
520: 30810204
523: 30810204
524: 30810204
525: 30810204
528: 30810204
529: 30810204
530: 30810204
531: 3c910af0
532: 30810204
533: 30810204
536: 30810204
537: 30810204
538: 30810204
541: 30810204
542: 30810204
543: 30810204
544: 3c910af0
545: 30810204
546: 30810204
549: 30810204
550: 30810204
551: 30810204
554: 30810204
555: 30810204
556: 30810204
557: 30810204
558: 30810204
561: 30810204
562: 30810204
581: 30810204
582: 30810204
583: 30810204
584: 30810204
585: 34bbb067
586: 349679c6
605: 3c910af0
606: 3c910af0
607: 3c8efa12
608: 3c33a7d5
609: 3c6beaf9
610: 3c0920dd
629: 3c46ae99
630: 3c46ae99
631: 3d54520d
632: 3d222bfe
633: 3d869bbf
634: 3d4ddb37
653: 3d46152d
654: 3d46152d
655: 3dee81bc
656: 3dbb4568
657: 3da2efcc
658: 3d40a2aa
677: 3d364be3
678: 3d364be3
679: 3d8fb077
680: 3d1bff7b
681: 3d42ed67
682: 3cf7c575
701: 3d03e053
702: 3d03e053
703: 3d4c31d3
704: 3d14ba7e
705: 3d230d48
706: 3d2626d7
output1: 3ddd0087
