TRT-7201-EntropyCalibration2
input1: 3c9db638
622: 3deb8235
626: 3d418f1e
627: 3d95af6e
631: 3d418f1e
632: 3e73e06b
634: 3e31d315
638: 3d418f1e
732: 3d4206db
736: 3d418f1e
737: 3e945bc4
739: 3e4091ab
743: 3d418f1e
744: 3e13e25b
748: 3d418f1e
749: 3e6831f3
751: 3e91b894
752: 3dc7730c
756: 3d418f1e
757: 3d6ca582
761: 3d418f1e
762: 3e2a0df2
764: 3eb0cd91
765: 3e1279f3
1299: 3ef10769
769: 3d418f1e
1420: 3edb9c25
863: 3e306df6
1421: 3da34fa0
867: 3d418f1e
1422: 3e431902
868: 3e881db0
1423: 3de3b037
870: 3df94a35
1424: 3ef0ca65
874: 3d418f1e
875: 3d9139e8
879: 3d418f1e
880: 3e4e96fa
882: 3ea0226e
883: 3dbf6af2
887: 3d418f1e
888: 3d76da62
892: 3d418f1e
893: 3e7bccb4
895: 3ef5f42c
896: 3ddd1bf1
1300: 3ec4b986
900: 3d418f1e
1379: 3ebc5b78
994: 3d94d948
1380: 3e1091b3
998: 3d418f1e
1381: 3de75b14
999: 3e9139d6
1382: 3d503ff5
1001: 3d729f4b
1383: 3ec3bb6d
1005: 3d418f1e
1006: 3dc2c42f
1010: 3d3af1e4
1011: 3e0fe78a
1013: 3e8ec73b
1014: 3def0230
1018: 3d418f1e
1019: 3dca8e2f
1023: 3d3ac183
1024: 3e24f3ea
1026: 3e9175bf
1027: 3d8daf92
1031: 3d4316b6
1032: 3e03b4bb
1036: 3d418f1e
1037: 3e26bef7
1039: 3ea166e4
1040: 3db46d89
1044: 3d42ebfe
1045: 3d96da12
1049: 3d418f1e
1050: 3e223d82
1052: 3ecd0e70
1053: 3e22e70e
1057: 3d418f1e
1058: 3e0e70b2
1062: 3d418f1e
1063: 3e693359
1065: 3d6f155f
1069: 3d418f1e
1070: 3dd66a00
1074: 3d418f1e
1075: 3e1e0cb9
1077: 3e6e276c
1078: 3d4fa159
1082: 3d418f1e
1083: 3db9415a
1087: 3d3f7af6
1088: 3e03348b
1090: 3e82c505
1091: 3d592d3f
1095: 3d418f1e
1096: 3d861b11
1100: 3d334a95
1101: 3e010b24
1103: 3eb9c1d6
1104: 3d4cf2c9
1108: 3d4606eb
1109: 3d727471
1113: 3d13bb77
1114: 3dda1e7e
1116: 3ed2d31b
1117: 3d91b728
1301: 3ee656a9
1121: 3d418f1e
1338: 3ea03f28
1215: 3d76f759
1339: 3e289f49
1219: 3d3ad9b3
1340: 3e289f49
1220: 3e3ab843
1341: 3e539908
1222: 3db3c5c2
1342: 3f0b1a59
1226: 3d418f1e
1227: 3d94b5b2
1231: 3d301428
1232: 3de12ce8
1234: 3e46b529
1235: 3d933faf
1239: 3d418f1e
1240: 3da4a21f
1244: 3d3166ce
1245: 3de0c02d
1247: 3e534432
1248: 3d8adb3f
1252: 3d418f1e
1253: 3daa4cad
1257: 3d0bcb97
1258: 3e007de7
1260: 3e7da7a2
1261: 3d92f998
1265: 3d418f1e
1266: 3d5128f6
1270: 3cf44081
1271: 3e0cf0b4
1273: 3e8bf74b
1274: 3d9d967e
1278: 3d418f1e
1279: 3da52d36
1283: 3c9ed5ab
1284: 3e303825
1286: 3ea87d99
1287: 3ddc33da
1291: 3d418f1e
1292: 3dababd5
1296: 3d418f1e
1297: 3e27300b
1302: 3f0fd67a
1303: 3f187da4
1304: 3eaaad17
1305: 3eaaad17
1306: 3ea7380c
1307: 3f20f9fa
1336: 3f17a654
1337: 3ed1ec5a
1343: 3f3ed61b
1344: 3f43b678
1345: 3e7b3edf
1346: 3e9cff73
1347: 3eca6e29
1348: 3f459298
1377: 3f41259e
1378: 3f2504fd
1384: 3f46be09
1385: 3f488bfd
1386: 3e8231ac
1387: 3efdb23c
1388: 3e5651c8
1389: 3f5b28f6
1418: 3f53f711
1419: 3f0d5159
1425: 3f1a5873
1426: 3f22e015
1427: 3e82f932
1428: 3e87bca6
1429: 3e3f514b
1430: 3f352600
1459: 3f33fcd1
1460: 3e5fc72b
1461: 3e597dd5
1490: 3e58a0f8
1491: 3e908523
1492: 3e908523
1493: 3e029d62
output1: 3c00f1f4
