TRT-7201-EntropyCalibration2
image_arrays:0: 4000890a
preprocessor/transpose:0_0: 4000890a
(Unnamed Layer* 1) [Constant]_output: 391094f9
preprocessor/scale:0_1: 3d100464
(Unnamed Layer* 3) [Constant]_output: 3c88a581
preprocessor/mean:0_2: 3c9d9c2f
efficientnet-lite4/stem/tpu_batch_normalization/FusedBatchNormV3:0: 3e8f70c5
efficientnet-lite4/stem/Relu6:0: 3d418f1e
efficientnet-lite4/blocks_0/tpu_batch_normalization/FusedBatchNormV3:0: 3dcc7fb4
efficientnet-lite4/blocks_0/Relu6:0: 3d418f1e
efficientnet-lite4/blocks_0/tpu_batch_normalization_1/FusedBatchNormV3:0: 3ede03a9
efficientnet-lite4/blocks_1/conv2d/Conv2D:0: 3e908ee7
efficientnet-lite4/blocks_1/tpu_batch_normalization/FusedBatchNormV3:0: 3e6fec8e
efficientnet-lite4/blocks_1/Relu6:0: 3d418f1e
efficientnet-lite4/blocks_1/tpu_batch_normalization_1/FusedBatchNormV3:0: 3d37c535
efficientnet-lite4/blocks_1/Relu6_1:0: 3d374285
efficientnet-lite4/blocks_1/tpu_batch_normalization_2/FusedBatchNormV3:0: 3edf6371
efficientnet-lite4/blocks_2/conv2d/Conv2D:0: 3e77f868
efficientnet-lite4/blocks_2/tpu_batch_normalization/FusedBatchNormV3:0: 3e05ba94
efficientnet-lite4/blocks_2/Relu6:0: 3d418f1e
efficientnet-lite4/blocks_2/tpu_batch_normalization_1/FusedBatchNormV3:0: 3e021ccf
efficientnet-lite4/blocks_2/Relu6_1:0: 3d418f1e
efficientnet-lite4/blocks_2/tpu_batch_normalization_2/FusedBatchNormV3:0: 3e8b8b4a
efficientnet-lite4/blocks_2/Add:0: 3ee1cd35
efficientnet-lite4/blocks_3/tpu_batch_normalization/FusedBatchNormV3:0: 3e34443c
efficientnet-lite4/blocks_3/Relu6:0: 3d418f1e
efficientnet-lite4/blocks_3/tpu_batch_normalization_1/FusedBatchNormV3:0: 3dd28434
efficientnet-lite4/blocks_3/Relu6_1:0: 3d418f1e
efficientnet-lite4/blocks_3/tpu_batch_normalization_2/FusedBatchNormV3:0: 3e9006f9
efficientnet-lite4/blocks_3/Add:0: 3f0c6e83
efficientnet-lite4/blocks_4/tpu_batch_normalization/FusedBatchNormV3:0: 3e149161
efficientnet-lite4/blocks_4/Relu6:0: 3d418f1e
efficientnet-lite4/blocks_4/tpu_batch_normalization_1/FusedBatchNormV3:0: 3e07f2e2
efficientnet-lite4/blocks_4/Relu6_1:0: 3d418f1e
efficientnet-lite4/blocks_4/tpu_batch_normalization_2/FusedBatchNormV3:0: 3e585d68
efficientnet-lite4/blocks_4/Add:0: 3f0ed7bf
efficientnet-lite4/blocks_5/tpu_batch_normalization/FusedBatchNormV3:0: 3e576488
efficientnet-lite4/blocks_5/Relu6:0: 3d418f1e
efficientnet-lite4/blocks_5/tpu_batch_normalization_1/FusedBatchNormV3:0: 3dc1348b
efficientnet-lite4/blocks_5/Relu6_1:0: 3d418f1e
efficientnet-lite4/blocks_5/tpu_batch_normalization_2/FusedBatchNormV3:0: 3ee8a789
efficientnet-lite4/blocks_6/conv2d/Conv2D:0: 3e3a129a
efficientnet-lite4/blocks_6/tpu_batch_normalization/FusedBatchNormV3:0: 3e3acb87
efficientnet-lite4/blocks_6/Relu6:0: 3d418f1e
efficientnet-lite4/blocks_6/tpu_batch_normalization_1/FusedBatchNormV3:0: 3e5b8c93
efficientnet-lite4/blocks_6/Relu6_1:0: 3d418f1e
efficientnet-lite4/blocks_6/tpu_batch_normalization_2/FusedBatchNormV3:0: 3e8c6bbd
efficientnet-lite4/blocks_6/Add:0: 3ee90183
efficientnet-lite4/blocks_7/tpu_batch_normalization/FusedBatchNormV3:0: 3defae24
efficientnet-lite4/blocks_7/Relu6:0: 3d418f1e
efficientnet-lite4/blocks_7/tpu_batch_normalization_1/FusedBatchNormV3:0: 3e1741cf
efficientnet-lite4/blocks_7/Relu6_1:0: 3d418f1e
efficientnet-lite4/blocks_7/tpu_batch_normalization_2/FusedBatchNormV3:0: 3e4551a0
efficientnet-lite4/blocks_7/Add:0: 3ee5762e
efficientnet-lite4/blocks_8/tpu_batch_normalization/FusedBatchNormV3:0: 3dc42593
efficientnet-lite4/blocks_8/Relu6:0: 3d418f1e
efficientnet-lite4/blocks_8/tpu_batch_normalization_1/FusedBatchNormV3:0: 3e02c58d
efficientnet-lite4/blocks_8/Relu6_1:0: 3d311e3c
efficientnet-lite4/blocks_8/tpu_batch_normalization_2/FusedBatchNormV3:0: 3e27bf93
efficientnet-lite4/blocks_8/Add:0: 3ee6a35a
fpn_cells/cell_0/fnode3/resample_0_0_8/bn/FusedBatchNormV3:0: 3d4fa700
efficientnet-lite4/blocks_9/tpu_batch_normalization/FusedBatchNormV3:0: 3de634ae
efficientnet-lite4/blocks_9/Relu6:0: 3d418f1e
efficientnet-lite4/blocks_9/tpu_batch_normalization_1/FusedBatchNormV3:0: 3d93f364
efficientnet-lite4/blocks_9/Relu6_1:0: 3d2fe3c8
efficientnet-lite4/blocks_9/tpu_batch_normalization_2/FusedBatchNormV3:0: 3ea90b05
efficientnet-lite4/blocks_10/conv2d/Conv2D:0: 3d99e12a
efficientnet-lite4/blocks_10/tpu_batch_normalization/FusedBatchNormV3:0: 3d4e0da7
efficientnet-lite4/blocks_10/Relu6:0: 3d2a8102
efficientnet-lite4/blocks_10/tpu_batch_normalization_1/FusedBatchNormV3:0: 3d8ec78f
efficientnet-lite4/blocks_10/Relu6_1:0: 3cb552a5
efficientnet-lite4/blocks_10/tpu_batch_normalization_2/FusedBatchNormV3:0: 3ddfe181
efficientnet-lite4/blocks_10/Add:0: 3ea81442
efficientnet-lite4/blocks_11/tpu_batch_normalization/FusedBatchNormV3:0: 3d41cb6e
efficientnet-lite4/blocks_11/Relu6:0: 3d330204
efficientnet-lite4/blocks_11/tpu_batch_normalization_1/FusedBatchNormV3:0: 3d98351f
efficientnet-lite4/blocks_11/Relu6_1:0: 3c7dcb97
efficientnet-lite4/blocks_11/tpu_batch_normalization_2/FusedBatchNormV3:0: 3dac7857
efficientnet-lite4/blocks_11/Add:0: 3eac3875
efficientnet-lite4/blocks_12/tpu_batch_normalization/FusedBatchNormV3:0: 3d485104
efficientnet-lite4/blocks_12/Relu6:0: 3d1b1a34
efficientnet-lite4/blocks_12/tpu_batch_normalization_1/FusedBatchNormV3:0: 3d4d8efc
efficientnet-lite4/blocks_12/Relu6_1:0: 3cb068d2
efficientnet-lite4/blocks_12/tpu_batch_normalization_2/FusedBatchNormV3:0: 3d96abf8
efficientnet-lite4/blocks_12/Add:0: 3ec0b6c1
efficientnet-lite4/blocks_13/tpu_batch_normalization/FusedBatchNormV3:0: 3d5d480d
efficientnet-lite4/blocks_13/Relu6:0: 3d3650a1
efficientnet-lite4/blocks_13/tpu_batch_normalization_1/FusedBatchNormV3:0: 3cec3d50
efficientnet-lite4/blocks_13/Relu6_1:0: 3cd566a9
efficientnet-lite4/blocks_13/tpu_batch_normalization_2/FusedBatchNormV3:0: 3d7767ae
efficientnet-lite4/blocks_13/Add:0: 3eb7e090
efficientnet-lite4/blocks_14/tpu_batch_normalization/FusedBatchNormV3:0: 3d252d2c
efficientnet-lite4/blocks_14/Relu6:0: 3d129932
efficientnet-lite4/blocks_14/tpu_batch_normalization_1/FusedBatchNormV3:0: 3cd76614
efficientnet-lite4/blocks_14/Relu6_1:0: 3c623469
efficientnet-lite4/blocks_14/tpu_batch_normalization_2/FusedBatchNormV3:0: 3d87afff
efficientnet-lite4/blocks_14/Add:0: 3ebab3b1
efficientnet-lite4/blocks_15/tpu_batch_normalization/FusedBatchNormV3:0: 3de543a8
efficientnet-lite4/blocks_15/Relu6:0: 3d418f1e
efficientnet-lite4/blocks_15/tpu_batch_normalization_1/FusedBatchNormV3:0: 3e1fb8a2
efficientnet-lite4/blocks_15/Relu6_1:0: 3d418f1e
efficientnet-lite4/blocks_15/tpu_batch_normalization_2/FusedBatchNormV3:0: 3ea971d1
efficientnet-lite4/blocks_16/conv2d/Conv2D:0: 3dcf7c65
efficientnet-lite4/blocks_16/tpu_batch_normalization/FusedBatchNormV3:0: 3db21cba
efficientnet-lite4/blocks_16/Relu6:0: 3d418f1e
efficientnet-lite4/blocks_16/tpu_batch_normalization_1/FusedBatchNormV3:0: 3d83718f
efficientnet-lite4/blocks_16/Relu6_1:0: 3d40cd9b
efficientnet-lite4/blocks_16/tpu_batch_normalization_2/FusedBatchNormV3:0: 3dbcf1ca
efficientnet-lite4/blocks_16/Add:0: 3e9f2922
efficientnet-lite4/blocks_17/tpu_batch_normalization/FusedBatchNormV3:0: 3d86f9da
efficientnet-lite4/blocks_17/Relu6:0: 3d418f1e
efficientnet-lite4/blocks_17/tpu_batch_normalization_1/FusedBatchNormV3:0: 3d7ca61b
efficientnet-lite4/blocks_17/Relu6_1:0: 3d182c59
efficientnet-lite4/blocks_17/tpu_batch_normalization_2/FusedBatchNormV3:0: 3dab7fb7
efficientnet-lite4/blocks_17/Add:0: 3ea623ed
efficientnet-lite4/blocks_18/tpu_batch_normalization/FusedBatchNormV3:0: 3d4c8a04
efficientnet-lite4/blocks_18/Relu6:0: 3d418f1e
efficientnet-lite4/blocks_18/tpu_batch_normalization_1/FusedBatchNormV3:0: 3d363076
efficientnet-lite4/blocks_18/Relu6_1:0: 3d05a74f
efficientnet-lite4/blocks_18/tpu_batch_normalization_2/FusedBatchNormV3:0: 3db55586
efficientnet-lite4/blocks_18/Add:0: 3ea7f944
efficientnet-lite4/blocks_19/tpu_batch_normalization/FusedBatchNormV3:0: 3d7f70c6
efficientnet-lite4/blocks_19/Relu6:0: 3d418f1e
efficientnet-lite4/blocks_19/tpu_batch_normalization_1/FusedBatchNormV3:0: 3d25f53c
efficientnet-lite4/blocks_19/Relu6_1:0: 3ca23c79
efficientnet-lite4/blocks_19/tpu_batch_normalization_2/FusedBatchNormV3:0: 3da27efc
efficientnet-lite4/blocks_19/Add:0: 3ea951cb
efficientnet-lite4/blocks_20/tpu_batch_normalization/FusedBatchNormV3:0: 3d4db514
efficientnet-lite4/blocks_20/Relu6:0: 3d418f1e
efficientnet-lite4/blocks_20/tpu_batch_normalization_1/FusedBatchNormV3:0: 3d417f01
efficientnet-lite4/blocks_20/Relu6_1:0: 3cb09932
efficientnet-lite4/blocks_20/tpu_batch_normalization_2/FusedBatchNormV3:0: 3d9840b8
efficientnet-lite4/blocks_20/Add:0: 3eabbe80
fpn_cells/cell_0/fnode4/resample_0_1_9/bn/FusedBatchNormV3:0: 3d6b5f78
fpn_cells/cell_0/fnode2/resample_0_1_7/bn/FusedBatchNormV3:0: 3d2baa58
efficientnet-lite4/blocks_21/tpu_batch_normalization/FusedBatchNormV3:0: 3d8aa430
efficientnet-lite4/blocks_21/Relu6:0: 3d418f1e
efficientnet-lite4/blocks_21/tpu_batch_normalization_1/FusedBatchNormV3:0: 3d4a3575
efficientnet-lite4/blocks_21/Relu6_1:0: 3d29bf7f
efficientnet-lite4/blocks_21/tpu_batch_normalization_2/FusedBatchNormV3:0: 3e77676b
efficientnet-lite4/blocks_22/conv2d/Conv2D:0: 3d9d1adb
efficientnet-lite4/blocks_22/tpu_batch_normalization/FusedBatchNormV3:0: 3db966e3
efficientnet-lite4/blocks_22/Relu6:0: 3d418f1e
efficientnet-lite4/blocks_22/tpu_batch_normalization_1/FusedBatchNormV3:0: 3da9b95c
efficientnet-lite4/blocks_22/Relu6_1:0: 3d20ddbb
efficientnet-lite4/blocks_22/tpu_batch_normalization_2/FusedBatchNormV3:0: 3d98409b
efficientnet-lite4/blocks_22/Add:0: 3e73407f
efficientnet-lite4/blocks_23/tpu_batch_normalization/FusedBatchNormV3:0: 3db194f5
efficientnet-lite4/blocks_23/Relu6:0: 3d418f1e
efficientnet-lite4/blocks_23/tpu_batch_normalization_1/FusedBatchNormV3:0: 3d922f38
efficientnet-lite4/blocks_23/Relu6_1:0: 3d042449
efficientnet-lite4/blocks_23/tpu_batch_normalization_2/FusedBatchNormV3:0: 3d918fc9
efficientnet-lite4/blocks_23/Add:0: 3e7b751e
efficientnet-lite4/blocks_24/tpu_batch_normalization/FusedBatchNormV3:0: 3d755845
efficientnet-lite4/blocks_24/Relu6:0: 3d418f1e
efficientnet-lite4/blocks_24/tpu_batch_normalization_1/FusedBatchNormV3:0: 3d387af3
efficientnet-lite4/blocks_24/Relu6_1:0: 3ca7870e
efficientnet-lite4/blocks_24/tpu_batch_normalization_2/FusedBatchNormV3:0: 3d7ec95c
efficientnet-lite4/blocks_24/Add:0: 3e817f43
efficientnet-lite4/blocks_25/tpu_batch_normalization/FusedBatchNormV3:0: 3d865e7a
efficientnet-lite4/blocks_25/Relu6:0: 3d418f1e
efficientnet-lite4/blocks_25/tpu_batch_normalization_1/FusedBatchNormV3:0: 3d5ce242
efficientnet-lite4/blocks_25/Relu6_1:0: 3c8f56ad
efficientnet-lite4/blocks_25/tpu_batch_normalization_2/FusedBatchNormV3:0: 3d81c131
efficientnet-lite4/blocks_25/Add:0: 3e86535f
efficientnet-lite4/blocks_26/tpu_batch_normalization/FusedBatchNormV3:0: 3d4c4ca7
efficientnet-lite4/blocks_26/Relu6:0: 3d27dbb7
efficientnet-lite4/blocks_26/tpu_batch_normalization_1/FusedBatchNormV3:0: 3d22caae
efficientnet-lite4/blocks_26/Relu6_1:0: 3c81bb77
efficientnet-lite4/blocks_26/tpu_batch_normalization_2/FusedBatchNormV3:0: 3d4c49df
efficientnet-lite4/blocks_26/Add:0: 3e9036cd
efficientnet-lite4/blocks_27/tpu_batch_normalization/FusedBatchNormV3:0: 3d2c46e2
efficientnet-lite4/blocks_27/Relu6:0: 3d2e9122
efficientnet-lite4/blocks_27/tpu_batch_normalization_1/FusedBatchNormV3:0: 3d1d0b1d
efficientnet-lite4/blocks_27/Relu6_1:0: 3c6cb253
efficientnet-lite4/blocks_27/tpu_batch_normalization_2/FusedBatchNormV3:0: 3d6b6379
efficientnet-lite4/blocks_27/Add:0: 3e932fb7
efficientnet-lite4/blocks_28/tpu_batch_normalization/FusedBatchNormV3:0: 3d326390
efficientnet-lite4/blocks_28/Relu6:0: 3d2ef1e4
efficientnet-lite4/blocks_28/tpu_batch_normalization_1/FusedBatchNormV3:0: 3d133c34
efficientnet-lite4/blocks_28/Relu6_1:0: 3c77658c
efficientnet-lite4/blocks_28/tpu_batch_normalization_2/FusedBatchNormV3:0: 3d5b1165
efficientnet-lite4/blocks_28/Add:0: 3e9675e0
efficientnet-lite4/blocks_29/tpu_batch_normalization/FusedBatchNormV3:0: 3db5f122
efficientnet-lite4/blocks_29/Relu6:0: 3d418f1e
efficientnet-lite4/blocks_29/tpu_batch_normalization_1/FusedBatchNormV3:0: 3d387406
efficientnet-lite4/blocks_29/Relu6_1:0: 3cde2449
efficientnet-lite4/blocks_29/tpu_batch_normalization_2/FusedBatchNormV3:0: 3db967b8
resample_p6/conv2d/BiasAdd:0: 3d8e363a
fpn_cells/cell_0/fnode5/resample_0_2_10/conv2d/BiasAdd:0: 3d77645b
fpn_cells/cell_0/fnode1/resample_0_2_6/conv2d/BiasAdd:0: 3d6a7282
resample_p6/bn/FusedBatchNormV3:0: 3d6d7b4b
fpn_cells/cell_0/fnode5/resample_0_2_10/bn/FusedBatchNormV3:0: 3d823873
fpn_cells/cell_0/fnode1/resample_0_2_6/bn/FusedBatchNormV3:0: 3d706afe
resample_p6/max_pooling2d/MaxPool:0: 3d6d7b4b
resample_p7/max_pooling2d_1/MaxPool:0: 3d6d7b4b
Resize__1465:0: 3d9d3e85
fpn_cells/cell_0/fnode0/add_n/add:0: 3e073932
fpn_cells/cell_0/fnode0/op_after_combine5/Relu6:0: 3d418f1e
fpn_cells/cell_0/fnode0/op_after_combine5/conv/separable_conv2d/depthwise:0: 3c61075b
fpn_cells/cell_0/fnode0/op_after_combine5/conv/BiasAdd:0: 3beec45b
fpn_cells/cell_0/fnode0/op_after_combine5/bn/FusedBatchNormV3:0: 3d53ae30
fpn_cells/cell_0/fnode6/add_n/add:0: 3d9dab4f
Resize__1488:0: 3d53ae30
fpn_cells/cell_0/fnode1/add_n/add:0: 3d9f9d5f
fpn_cells/cell_0/fnode1/op_after_combine6/Relu6:0: 3d418f1e
fpn_cells/cell_0/fnode1/op_after_combine6/conv/separable_conv2d/depthwise:0: 3c4ceb78
fpn_cells/cell_0/fnode1/op_after_combine6/conv/BiasAdd:0: 3be2922a
fpn_cells/cell_0/fnode1/op_after_combine6/bn/FusedBatchNormV3:0: 3d11957d
fpn_cells/cell_0/fnode5/add_n/add:0: 3d92c9eb
Resize__1533:0: 3d11957d
fpn_cells/cell_0/fnode2/add_n/add:0: 3d70405f
fpn_cells/cell_0/fnode2/op_after_combine7/Relu6:0: 3d418f1e
fpn_cells/cell_0/fnode2/op_after_combine7/conv/separable_conv2d/depthwise:0: 3c17aaf5
fpn_cells/cell_0/fnode2/op_after_combine7/conv/BiasAdd:0: 3b90f4b0
fpn_cells/cell_0/fnode2/op_after_combine7/bn/FusedBatchNormV3:0: 3d4dc007
fpn_cells/cell_0/fnode4/add_n/add:0: 3d938b6c
Resize__1554:0: 3d4dc007
fpn_cells/cell_0/fnode3/add_n/add:0: 3d8d0d67
fpn_cells/cell_0/fnode3/op_after_combine8/Relu6:0: 3d418f1e
fpn_cells/cell_0/fnode3/op_after_combine8/conv/separable_conv2d/depthwise:0: 3c2509a7
fpn_cells/cell_0/fnode3/op_after_combine8/conv/BiasAdd:0: 3bc29f49
fpn_cells/cell_0/fnode3/op_after_combine8/bn/FusedBatchNormV3:0: 3d25b193
fpn_cells/cell_0/fnode4/resample_2_8_9/max_pooling2d_2/MaxPool:0: 3d25b193
fpn_cells/cell_0/fnode4/add_n/add_1:0: 3d9b345f
fpn_cells/cell_0/fnode4/op_after_combine9/Relu6:0: 3d418f1e
fpn_cells/cell_0/fnode4/op_after_combine9/conv/separable_conv2d/depthwise:0: 3c164cf1
fpn_cells/cell_0/fnode4/op_after_combine9/conv/BiasAdd:0: 3bbcb769
fpn_cells/cell_0/fnode4/op_after_combine9/bn/FusedBatchNormV3:0: 3d3694b4
fpn_cells/cell_0/fnode5/resample_2_9_10/max_pooling2d_3/MaxPool:0: 3d3694b4
fpn_cells/cell_0/fnode5/add_n/add_1:0: 3db0287f
fpn_cells/cell_0/fnode5/op_after_combine10/Relu6:0: 3d418f1e
fpn_cells/cell_0/fnode5/op_after_combine10/conv/separable_conv2d/depthwise:0: 3c1c7375
fpn_cells/cell_0/fnode5/op_after_combine10/conv/BiasAdd:0: 3b9ac290
fpn_cells/cell_0/fnode5/op_after_combine10/bn/FusedBatchNormV3:0: 3d345a15
fpn_cells/cell_0/fnode6/resample_2_10_11/max_pooling2d_4/MaxPool:0: 3d345a15
fpn_cells/cell_0/fnode6/add_n/add_1:0: 3daf4db0
fpn_cells/cell_0/fnode6/op_after_combine11/Relu6:0: 3d418f1e
fpn_cells/cell_0/fnode6/op_after_combine11/conv/separable_conv2d/depthwise:0: 3c190d55
fpn_cells/cell_0/fnode6/op_after_combine11/conv/BiasAdd:0: 3b506de3
fpn_cells/cell_0/fnode6/op_after_combine11/bn/FusedBatchNormV3:0: 3d03f9dc
fpn_cells/cell_0/fnode7/resample_1_11_12/max_pooling2d_5/MaxPool:0: 3d03f9dc
fpn_cells/cell_0/fnode7/add_n/add:0: 3db2ceaf
fpn_cells/cell_0/fnode7/op_after_combine12/Relu6:0: 3d418f1e
fpn_cells/cell_0/fnode7/op_after_combine12/conv/separable_conv2d/depthwise:0: 3c485866
fpn_cells/cell_0/fnode7/op_after_combine12/conv/BiasAdd:0: 3b9a00b0
fpn_cells/cell_0/fnode7/op_after_combine12/bn/FusedBatchNormV3:0: 3d51ad4e
Resize__1627:0: 3d51ad4e
fpn_cells/cell_1/fnode0/add_n/add:0: 3d6abf4a
fpn_cells/cell_1/fnode0/op_after_combine5/Relu6:0: 3d449131
fpn_cells/cell_1/fnode0/op_after_combine5/conv/separable_conv2d/depthwise:0: 3bdf766e
fpn_cells/cell_1/fnode0/op_after_combine5/conv/BiasAdd:0: 3b49fe92
fpn_cells/cell_1/fnode0/op_after_combine5/bn/FusedBatchNormV3:0: 3cf7dabb
fpn_cells/cell_1/fnode6/add_n/add:0: 3d2ea83f
Resize__1648:0: 3cf7dabb
fpn_cells/cell_1/fnode1/add_n/add:0: 3d57cb7a
fpn_cells/cell_1/fnode1/op_after_combine6/Relu6:0: 3d418f1e
fpn_cells/cell_1/fnode1/op_after_combine6/conv/separable_conv2d/depthwise:0: 3c013464
fpn_cells/cell_1/fnode1/op_after_combine6/conv/BiasAdd:0: 3b3f2a74
fpn_cells/cell_1/fnode1/op_after_combine6/bn/FusedBatchNormV3:0: 3cdc1272
fpn_cells/cell_1/fnode5/add_n/add:0: 3d5119af
Resize__1669:0: 3cdc1272
fpn_cells/cell_1/fnode2/add_n/add:0: 3d4decfb
fpn_cells/cell_1/fnode2/op_after_combine7/Relu6:0: 3d418f1e
fpn_cells/cell_1/fnode2/op_after_combine7/conv/separable_conv2d/depthwise:0: 3bee34b2
fpn_cells/cell_1/fnode2/op_after_combine7/conv/BiasAdd:0: 3b115bca
fpn_cells/cell_1/fnode2/op_after_combine7/bn/FusedBatchNormV3:0: 3cc93c50
fpn_cells/cell_1/fnode4/add_n/add:0: 3d514adc
Resize__1690:0: 3cc93c50
fpn_cells/cell_1/fnode3/add_n/add:0: 3d3eca90
fpn_cells/cell_1/fnode3/op_after_combine8/Relu6:0: 3d2c1feb
fpn_cells/cell_1/fnode3/op_after_combine8/conv/separable_conv2d/depthwise:0: 3bbcb625
fpn_cells/cell_1/fnode3/op_after_combine8/conv/BiasAdd:0: 3b6a91d8
fpn_cells/cell_1/fnode3/op_after_combine8/bn/FusedBatchNormV3:0: 3d37de65
fpn_cells/cell_1/fnode4/resample_2_8_9/max_pooling2d_6/MaxPool:0: 3d37de65
fpn_cells/cell_1/fnode4/add_n/add_1:0: 3d8261e8
fpn_cells/cell_1/fnode4/op_after_combine9/Relu6:0: 3d418f1e
fpn_cells/cell_1/fnode4/op_after_combine9/conv/separable_conv2d/depthwise:0: 3c09f872
fpn_cells/cell_1/fnode4/op_after_combine9/conv/BiasAdd:0: 3b8e6c82
fpn_cells/cell_1/fnode4/op_after_combine9/bn/FusedBatchNormV3:0: 3d2eecb8
fpn_cells/cell_1/fnode5/resample_2_9_10/max_pooling2d_7/MaxPool:0: 3d2eecb8
fpn_cells/cell_1/fnode5/add_n/add_1:0: 3d8da5e9
fpn_cells/cell_1/fnode5/op_after_combine10/Relu6:0: 3d418f1e
fpn_cells/cell_1/fnode5/op_after_combine10/conv/separable_conv2d/depthwise:0: 3c0323d0
fpn_cells/cell_1/fnode5/op_after_combine10/conv/BiasAdd:0: 3b70bbe7
fpn_cells/cell_1/fnode5/op_after_combine10/bn/FusedBatchNormV3:0: 3d20e73d
fpn_cells/cell_1/fnode6/resample_2_10_11/max_pooling2d_8/MaxPool:0: 3d20e73d
fpn_cells/cell_1/fnode6/add_n/add_1:0: 3d55fe47
fpn_cells/cell_1/fnode6/op_after_combine11/Relu6:0: 3d42e5ce
fpn_cells/cell_1/fnode6/op_after_combine11/conv/separable_conv2d/depthwise:0: 3bbd590b
fpn_cells/cell_1/fnode6/op_after_combine11/conv/BiasAdd:0: 3ab07be1
fpn_cells/cell_1/fnode6/op_after_combine11/bn/FusedBatchNormV3:0: 3cf54f26
fpn_cells/cell_1/fnode7/resample_1_11_12/max_pooling2d_9/MaxPool:0: 3cf54f26
fpn_cells/cell_1/fnode7/add_n/add:0: 3d4d0120
fpn_cells/cell_1/fnode7/op_after_combine12/Relu6:0: 3d461fe0
fpn_cells/cell_1/fnode7/op_after_combine12/conv/separable_conv2d/depthwise:0: 3bb3243c
fpn_cells/cell_1/fnode7/op_after_combine12/conv/BiasAdd:0: 3b0569ac
fpn_cells/cell_1/fnode7/op_after_combine12/bn/FusedBatchNormV3:0: 3d1065a3
Resize__1763:0: 3d1065a3
fpn_cells/cell_2/fnode0/add_n/add:0: 3d2467cf
fpn_cells/cell_2/fnode0/op_after_combine5/Relu6:0: 3d0b02cf
fpn_cells/cell_2/fnode0/op_after_combine5/conv/separable_conv2d/depthwise:0: 3b9ab5ed
fpn_cells/cell_2/fnode0/op_after_combine5/conv/BiasAdd:0: 3ae05263
fpn_cells/cell_2/fnode0/op_after_combine5/bn/FusedBatchNormV3:0: 3cf50ed3
fpn_cells/cell_2/fnode6/add_n/add:0: 3d1d9bb3
Resize__1784:0: 3cf50ed3
fpn_cells/cell_2/fnode1/add_n/add:0: 3d2d06d8
fpn_cells/cell_2/fnode1/op_after_combine6/Relu6:0: 3d35e977
fpn_cells/cell_2/fnode1/op_after_combine6/conv/separable_conv2d/depthwise:0: 3bab4590
fpn_cells/cell_2/fnode1/op_after_combine6/conv/BiasAdd:0: 3aee3439
fpn_cells/cell_2/fnode1/op_after_combine6/bn/FusedBatchNormV3:0: 3ce38805
fpn_cells/cell_2/fnode5/add_n/add:0: 3d356ec1
Resize__1805:0: 3ce38805
fpn_cells/cell_2/fnode2/add_n/add:0: 3d4c013b
fpn_cells/cell_2/fnode2/op_after_combine7/Relu6:0: 3d42e092
fpn_cells/cell_2/fnode2/op_after_combine7/conv/separable_conv2d/depthwise:0: 3ba1a09e
fpn_cells/cell_2/fnode2/op_after_combine7/conv/BiasAdd:0: 3afcfd97
fpn_cells/cell_2/fnode2/op_after_combine7/bn/FusedBatchNormV3:0: 3cc2d263
fpn_cells/cell_2/fnode4/add_n/add:0: 3d46fe5d
Resize__1826:0: 3cc2d263
fpn_cells/cell_2/fnode3/add_n/add:0: 3d4e7b29
fpn_cells/cell_2/fnode3/op_after_combine8/Relu6:0: 3d418f1e
fpn_cells/cell_2/fnode3/op_after_combine8/conv/separable_conv2d/depthwise:0: 3be82e24
fpn_cells/cell_2/fnode3/op_after_combine8/conv/BiasAdd:0: 3b90e829
fpn_cells/cell_2/fnode3/op_after_combine8/bn/FusedBatchNormV3:0: 3d3ce90d
fpn_cells/cell_2/fnode4/resample_2_8_9/max_pooling2d_10/MaxPool:0: 3d3ce90d
fpn_cells/cell_2/fnode4/add_n/add_1:0: 3d8da545
fpn_cells/cell_2/fnode4/op_after_combine9/Relu6:0: 3d418f1e
fpn_cells/cell_2/fnode4/op_after_combine9/conv/separable_conv2d/depthwise:0: 3c13446d
fpn_cells/cell_2/fnode4/op_after_combine9/conv/BiasAdd:0: 3b837603
fpn_cells/cell_2/fnode4/op_after_combine9/bn/FusedBatchNormV3:0: 3d23350d
fpn_cells/cell_2/fnode5/resample_2_9_10/max_pooling2d_11/MaxPool:0: 3d23350d
fpn_cells/cell_2/fnode5/add_n/add_1:0: 3d7ab9c7
fpn_cells/cell_2/fnode5/op_after_combine10/Relu6:0: 3d418f1e
fpn_cells/cell_2/fnode5/op_after_combine10/conv/separable_conv2d/depthwise:0: 3bfac199
fpn_cells/cell_2/fnode5/op_after_combine10/conv/BiasAdd:0: 3b628d23
fpn_cells/cell_2/fnode5/op_after_combine10/bn/FusedBatchNormV3:0: 3d17d65c
fpn_cells/cell_2/fnode6/resample_2_10_11/max_pooling2d_12/MaxPool:0: 3d17d65c
fpn_cells/cell_2/fnode6/add_n/add_1:0: 3d87e675
fpn_cells/cell_2/fnode6/op_after_combine11/Relu6:0: 3d418f1e
fpn_cells/cell_2/fnode6/op_after_combine11/conv/separable_conv2d/depthwise:0: 3b9a1a72
fpn_cells/cell_2/fnode6/op_after_combine11/conv/BiasAdd:0: 3aca8861
fpn_cells/cell_2/fnode6/op_after_combine11/bn/FusedBatchNormV3:0: 3d130752
fpn_cells/cell_2/fnode7/resample_1_11_12/max_pooling2d_13/MaxPool:0: 3d130752
fpn_cells/cell_2/fnode7/add_n/add:0: 3d2b8f0c
fpn_cells/cell_2/fnode7/op_after_combine12/Relu6:0: 3d2bed87
fpn_cells/cell_2/fnode7/op_after_combine12/conv/separable_conv2d/depthwise:0: 3b8a6bd8
fpn_cells/cell_2/fnode7/op_after_combine12/conv/BiasAdd:0: 3ad0735d
fpn_cells/cell_2/fnode7/op_after_combine12/bn/FusedBatchNormV3:0: 3cda4648
Resize__1899:0: 3cda4648
fpn_cells/cell_3/fnode0/add_n/add:0: 3d1b5605
fpn_cells/cell_3/fnode0/op_after_combine5/Relu6:0: 3d1e9963
fpn_cells/cell_3/fnode0/op_after_combine5/conv/separable_conv2d/depthwise:0: 3b4ae4d5
fpn_cells/cell_3/fnode0/op_after_combine5/conv/BiasAdd:0: 3a37f057
fpn_cells/cell_3/fnode0/op_after_combine5/bn/FusedBatchNormV3:0: 3c92d56c
fpn_cells/cell_3/fnode6/add_n/add:0: 3d0eb1b2
Resize__1920:0: 3c92d56c
fpn_cells/cell_3/fnode1/add_n/add:0: 3d1cec9f
fpn_cells/cell_3/fnode1/op_after_combine6/Relu6:0: 3d12f153
fpn_cells/cell_3/fnode1/op_after_combine6/conv/separable_conv2d/depthwise:0: 3b8b3fcd
fpn_cells/cell_3/fnode1/op_after_combine6/conv/BiasAdd:0: 3a8c472f
fpn_cells/cell_3/fnode1/op_after_combine6/bn/FusedBatchNormV3:0: 3caa4059
fpn_cells/cell_3/fnode5/add_n/add:0: 3d30e856
Resize__1941:0: 3caa4059
fpn_cells/cell_3/fnode2/add_n/add:0: 3d3afc68
fpn_cells/cell_3/fnode2/op_after_combine7/Relu6:0: 3d182eec
fpn_cells/cell_3/fnode2/op_after_combine7/conv/separable_conv2d/depthwise:0: 3b7b5e4a
fpn_cells/cell_3/fnode2/op_after_combine7/conv/BiasAdd:0: 3a957178
fpn_cells/cell_3/fnode2/op_after_combine7/bn/FusedBatchNormV3:0: 3cb14e7d
fpn_cells/cell_3/fnode4/add_n/add:0: 3d399f85
Resize__1962:0: 3cb14e7d
fpn_cells/cell_3/fnode3/add_n/add:0: 3d49755a
fpn_cells/cell_3/fnode3/op_after_combine8/Relu6:0: 3d418f1e
fpn_cells/cell_3/fnode3/op_after_combine8/conv/separable_conv2d/depthwise:0: 3bcde583
fpn_cells/cell_3/fnode3/op_after_combine8/conv/BiasAdd:0: 3b8e6a57
fpn_cells/cell_3/fnode3/op_after_combine8/bn/FusedBatchNormV3:0: 3d452d4d
fpn_cells/cell_3/fnode4/resample_2_8_9/max_pooling2d_14/MaxPool:0: 3d452d4d
fpn_cells/cell_3/fnode4/add_n/add_1:0: 3d7f22d8
fpn_cells/cell_3/fnode4/op_after_combine9/Relu6:0: 3d418f1e
fpn_cells/cell_3/fnode4/op_after_combine9/conv/separable_conv2d/depthwise:0: 3bec0822
fpn_cells/cell_3/fnode4/op_after_combine9/conv/BiasAdd:0: 3b5cf2ab
fpn_cells/cell_3/fnode4/op_after_combine9/bn/FusedBatchNormV3:0: 3d189bd9
fpn_cells/cell_3/fnode5/resample_2_9_10/max_pooling2d_15/MaxPool:0: 3d189bd9
fpn_cells/cell_3/fnode5/add_n/add_1:0: 3d504acf
fpn_cells/cell_3/fnode5/op_after_combine10/Relu6:0: 3d418f1e
fpn_cells/cell_3/fnode5/op_after_combine10/conv/separable_conv2d/depthwise:0: 3bb49f6c
fpn_cells/cell_3/fnode5/op_after_combine10/conv/BiasAdd:0: 3b30fe18
fpn_cells/cell_3/fnode5/op_after_combine10/bn/FusedBatchNormV3:0: 3d18586f
fpn_cells/cell_3/fnode6/resample_2_10_11/max_pooling2d_16/MaxPool:0: 3d18586f
fpn_cells/cell_3/fnode6/add_n/add_1:0: 3d4676f3
fpn_cells/cell_3/fnode6/op_after_combine11/Relu6:0: 3d449523
fpn_cells/cell_3/fnode6/op_after_combine11/conv/separable_conv2d/depthwise:0: 3b899554
fpn_cells/cell_3/fnode6/op_after_combine11/conv/BiasAdd:0: 3aab43fe
fpn_cells/cell_3/fnode6/op_after_combine11/bn/FusedBatchNormV3:0: 3cda5adb
fpn_cells/cell_3/fnode7/resample_1_11_12/max_pooling2d_17/MaxPool:0: 3cda5adb
fpn_cells/cell_3/fnode7/add_n/add:0: 3d1316cd
fpn_cells/cell_3/fnode7/op_after_combine12/Relu6:0: 3d1d2227
fpn_cells/cell_3/fnode7/op_after_combine12/conv/separable_conv2d/depthwise:0: 3b77e7b6
fpn_cells/cell_3/fnode7/op_after_combine12/conv/BiasAdd:0: 3a82a8d6
fpn_cells/cell_3/fnode7/op_after_combine12/bn/FusedBatchNormV3:0: 3cccef77
Resize__2035:0: 3cccef77
fpn_cells/cell_4/fnode0/add_n/add:0: 3d10a963
fpn_cells/cell_4/fnode0/op_after_combine5/Relu6:0: 3d161654
fpn_cells/cell_4/fnode0/op_after_combine5/conv/separable_conv2d/depthwise:0: 3b24e641
fpn_cells/cell_4/fnode0/op_after_combine5/conv/BiasAdd:0: 3a08e8e0
fpn_cells/cell_4/fnode0/op_after_combine5/bn/FusedBatchNormV3:0: 3c5d53f6
fpn_cells/cell_4/fnode6/add_n/add:0: 3cf72691
Resize__2056:0: 3c5d53f6
fpn_cells/cell_4/fnode1/add_n/add:0: 3d16696c
fpn_cells/cell_4/fnode1/op_after_combine6/Relu6:0: 3d1eba2c
fpn_cells/cell_4/fnode1/op_after_combine6/conv/separable_conv2d/depthwise:0: 3b5f9247
fpn_cells/cell_4/fnode1/op_after_combine6/conv/BiasAdd:0: 3a3fec47
fpn_cells/cell_4/fnode1/op_after_combine6/bn/FusedBatchNormV3:0: 3ca515b9
fpn_cells/cell_4/fnode5/add_n/add:0: 3d1f41dc
Resize__2077:0: 3ca515b9
fpn_cells/cell_4/fnode2/add_n/add:0: 3d3170f9
fpn_cells/cell_4/fnode2/op_after_combine7/Relu6:0: 3d103c79
fpn_cells/cell_4/fnode2/op_after_combine7/conv/separable_conv2d/depthwise:0: 3b4402be
fpn_cells/cell_4/fnode2/op_after_combine7/conv/BiasAdd:0: 3a786a96
fpn_cells/cell_4/fnode2/op_after_combine7/bn/FusedBatchNormV3:0: 3ca9ec72
fpn_cells/cell_4/fnode4/add_n/add:0: 3d3362b9
Resize__2098:0: 3ca9ec72
fpn_cells/cell_4/fnode3/add_n/add:0: 3d4b17d0
fpn_cells/cell_4/fnode3/op_after_combine8/Relu6:0: 3d418f1e
fpn_cells/cell_4/fnode3/op_after_combine8/conv/separable_conv2d/depthwise:0: 3be4522b
fpn_cells/cell_4/fnode3/op_after_combine8/conv/BiasAdd:0: 3b77d95b
fpn_cells/cell_4/fnode3/op_after_combine8/bn/FusedBatchNormV3:0: 3d3e2c41
fpn_cells/cell_4/fnode4/resample_2_8_9/max_pooling2d_18/MaxPool:0: 3d3e2c41
fpn_cells/cell_4/fnode4/add_n/add_1:0: 3d70ae83
fpn_cells/cell_4/fnode4/op_after_combine9/Relu6:0: 3d418f1e
fpn_cells/cell_4/fnode4/op_after_combine9/conv/separable_conv2d/depthwise:0: 3be222c6
fpn_cells/cell_4/fnode4/op_after_combine9/conv/BiasAdd:0: 3b520602
fpn_cells/cell_4/fnode4/op_after_combine9/bn/FusedBatchNormV3:0: 3d1f0a4b
fpn_cells/cell_4/fnode5/resample_2_9_10/max_pooling2d_19/MaxPool:0: 3d1f0a4b
fpn_cells/cell_4/fnode5/add_n/add_1:0: 3d50e1e0
fpn_cells/cell_4/fnode5/op_after_combine10/Relu6:0: 3d418f1e
fpn_cells/cell_4/fnode5/op_after_combine10/conv/separable_conv2d/depthwise:0: 3bae92c1
fpn_cells/cell_4/fnode5/op_after_combine10/conv/BiasAdd:0: 3b267df4
fpn_cells/cell_4/fnode5/op_after_combine10/bn/FusedBatchNormV3:0: 3d047f16
fpn_cells/cell_4/fnode6/resample_2_10_11/max_pooling2d_20/MaxPool:0: 3d047f16
fpn_cells/cell_4/fnode6/add_n/add_1:0: 3d2f6f3a
fpn_cells/cell_4/fnode6/op_after_combine11/Relu6:0: 3d4474e4
fpn_cells/cell_4/fnode6/op_after_combine11/conv/separable_conv2d/depthwise:0: 3b8eb6d9
fpn_cells/cell_4/fnode6/op_after_combine11/conv/BiasAdd:0: 3ac19b84
fpn_cells/cell_4/fnode6/op_after_combine11/bn/FusedBatchNormV3:0: 3d00a1e3
fpn_cells/cell_4/fnode7/resample_1_11_12/max_pooling2d_21/MaxPool:0: 3d00a1e3
fpn_cells/cell_4/fnode7/add_n/add:0: 3d1355ae
fpn_cells/cell_4/fnode7/op_after_combine12/Relu6:0: 3d226819
fpn_cells/cell_4/fnode7/op_after_combine12/conv/separable_conv2d/depthwise:0: 3b6cb23b
fpn_cells/cell_4/fnode7/op_after_combine12/conv/BiasAdd:0: 3ab769a9
fpn_cells/cell_4/fnode7/op_after_combine12/bn/FusedBatchNormV3:0: 3cb93c71
Resize__2171:0: 3cb93c71
fpn_cells/cell_5/fnode0/add_n/add:0: 3d0824eb
fpn_cells/cell_5/fnode0/op_after_combine5/Relu6:0: 3d12c44f
fpn_cells/cell_5/fnode0/op_after_combine5/conv/separable_conv2d/depthwise:0: 3b749886
fpn_cells/cell_5/fnode0/op_after_combine5/conv/BiasAdd:0: 3a82f6db
fpn_cells/cell_5/fnode0/op_after_combine5/bn/FusedBatchNormV3:0: 3ccb406a
fpn_cells/cell_5/fnode6/add_n/add:0: 3d0d1ec3
Resize__2192:0: 3ccb406a
fpn_cells/cell_5/fnode1/add_n/add:0: 3d1bfaa8
fpn_cells/cell_5/fnode1/op_after_combine6/Relu6:0: 3d06ee52
fpn_cells/cell_5/fnode1/op_after_combine6/conv/separable_conv2d/depthwise:0: 3b65f757
fpn_cells/cell_5/fnode1/op_after_combine6/conv/BiasAdd:0: 3a782d52
fpn_cells/cell_5/fnode1/op_after_combine6/bn/FusedBatchNormV3:0: 3cc749d9
fpn_cells/cell_5/fnode5/add_n/add:0: 3d196813
Resize__2213:0: 3cc749d9
fpn_cells/cell_5/fnode2/add_n/add:0: 3d32c998
fpn_cells/cell_5/fnode2/op_after_combine7/Relu6:0: 3d1500da
fpn_cells/cell_5/fnode2/op_after_combine7/conv/separable_conv2d/depthwise:0: 3b81c91f
fpn_cells/cell_5/fnode2/op_after_combine7/conv/BiasAdd:0: 3ac8eb34
fpn_cells/cell_5/fnode2/op_after_combine7/bn/FusedBatchNormV3:0: 3cd128ba
fpn_cells/cell_5/fnode4/add_n/add:0: 3d35c1de
Resize__2234:0: 3cd128ba
fpn_cells/cell_5/fnode3/add_n/add:0: 3d4bd58e
fpn_cells/cell_5/fnode3/op_after_combine8/Relu6:0: 3d418f1e
fpn_cells/cell_5/fnode3/op_after_combine8/conv/separable_conv2d/depthwise:0: 3bded8c5
fpn_cells/cell_5/fnode3/op_after_combine8/conv/BiasAdd:0: 3b5a7b6a
fpn_cells/cell_5/fnode3/op_after_combine8/bn/FusedBatchNormV3:0: 3d50ca1b
fpn_cells/cell_5/fnode4/resample_2_8_9/max_pooling2d_22/MaxPool:0: 3d50ca1b
fpn_cells/cell_5/fnode4/add_n/add_1:0: 3d839913
fpn_cells/cell_5/fnode4/op_after_combine9/Relu6:0: 3d418f1e
fpn_cells/cell_5/fnode4/op_after_combine9/conv/separable_conv2d/depthwise:0: 3beb84fa
fpn_cells/cell_5/fnode4/op_after_combine9/conv/BiasAdd:0: 3b533829
fpn_cells/cell_5/fnode4/op_after_combine9/bn/FusedBatchNormV3:0: 3d137160
fpn_cells/cell_5/fnode5/resample_2_9_10/max_pooling2d_23/MaxPool:0: 3d137160
fpn_cells/cell_5/fnode5/add_n/add_1:0: 3d2facbf
fpn_cells/cell_5/fnode5/op_after_combine10/Relu6:0: 3d418f1e
fpn_cells/cell_5/fnode5/op_after_combine10/conv/separable_conv2d/depthwise:0: 3b9d6bba
fpn_cells/cell_5/fnode5/op_after_combine10/conv/BiasAdd:0: 3b00e735
fpn_cells/cell_5/fnode5/op_after_combine10/bn/FusedBatchNormV3:0: 3d08001e
fpn_cells/cell_5/fnode6/resample_2_10_11/max_pooling2d_24/MaxPool:0: 3d08001e
fpn_cells/cell_5/fnode6/add_n/add_1:0: 3d294f77
fpn_cells/cell_5/fnode6/op_after_combine11/Relu6:0: 3d3576ee
fpn_cells/cell_5/fnode6/op_after_combine11/conv/separable_conv2d/depthwise:0: 3b6984dd
fpn_cells/cell_5/fnode6/op_after_combine11/conv/BiasAdd:0: 3a817375
fpn_cells/cell_5/fnode6/op_after_combine11/bn/FusedBatchNormV3:0: 3cad9cb6
fpn_cells/cell_5/fnode7/resample_1_11_12/max_pooling2d_25/MaxPool:0: 3cad9cb6
fpn_cells/cell_5/fnode7/add_n/add:0: 3ce8c01c
fpn_cells/cell_5/fnode7/op_after_combine12/Relu6:0: 3ce88978
fpn_cells/cell_5/fnode7/op_after_combine12/conv/separable_conv2d/depthwise:0: 3b593ffb
fpn_cells/cell_5/fnode7/op_after_combine12/conv/BiasAdd:0: 3a952a2d
fpn_cells/cell_5/fnode7/op_after_combine12/bn/FusedBatchNormV3:0: 3caee809
Resize__2307:0: 3caee809
fpn_cells/cell_6/fnode0/add_n/add:0: 3cdcd94b
fpn_cells/cell_6/fnode0/op_after_combine5/Relu6:0: 3cb90579
fpn_cells/cell_6/fnode0/op_after_combine5/conv/separable_conv2d/depthwise:0: 3b3eae7d
fpn_cells/cell_6/fnode0/op_after_combine5/conv/BiasAdd:0: 3a6e599d
fpn_cells/cell_6/fnode0/op_after_combine5/bn/FusedBatchNormV3:0: 3cb8d6b4
fpn_cells/cell_6/fnode6/add_n/add:0: 3cef17f8
Resize__2328:0: 3cb8d6b4
fpn_cells/cell_6/fnode1/add_n/add:0: 3d151776
fpn_cells/cell_6/fnode1/op_after_combine6/Relu6:0: 3d091eba
fpn_cells/cell_6/fnode1/op_after_combine6/conv/separable_conv2d/depthwise:0: 3b683708
fpn_cells/cell_6/fnode1/op_after_combine6/conv/BiasAdd:0: 3acd03c3
fpn_cells/cell_6/fnode1/op_after_combine6/bn/FusedBatchNormV3:0: 3cc782e6
fpn_cells/cell_6/fnode5/add_n/add:0: 3d2b560f
Resize__2349:0: 3cc782e6
fpn_cells/cell_6/fnode2/add_n/add:0: 3d20f16d
fpn_cells/cell_6/fnode2/op_after_combine7/Relu6:0: 3d152f86
fpn_cells/cell_6/fnode2/op_after_combine7/conv/separable_conv2d/depthwise:0: 3bac774b
fpn_cells/cell_6/fnode2/op_after_combine7/conv/BiasAdd:0: 3afb77e6
fpn_cells/cell_6/fnode2/op_after_combine7/bn/FusedBatchNormV3:0: 3d0b25e5
fpn_cells/cell_6/fnode4/add_n/add:0: 3d3d259c
Resize__2370:0: 3d0b25e5
fpn_cells/cell_6/fnode3/add_n/add:0: 3d64289d
fpn_cells/cell_6/fnode3/op_after_combine8/Relu6:0: 3d418f1e
fpn_cells/cell_6/fnode3/op_after_combine8/conv/separable_conv2d/depthwise:0: 3bec4e68
fpn_cells/cell_6/fnode3/op_after_combine8/conv/BiasAdd:0: 3c8776f9
fpn_cells/cell_6/fnode3/op_after_combine8/bn/FusedBatchNormV3:0: 3d409202
fpn_cells/cell_6/fnode4/resample_2_8_9/max_pooling2d_26/MaxPool:0: 3d409202
class_net/class-0/separable_conv2d/depthwise:0: 3c11988a
box_net/box-0/separable_conv2d/depthwise:0: 3bdfeda0
fpn_cells/cell_6/fnode4/add_n/add_1:0: 3d8c6190
class_net/class-0/BiasAdd:0: 3ba46f7d
box_net/box-0/BiasAdd:0: 3b2d0d15
fpn_cells/cell_6/fnode4/op_after_combine9/Relu6:0: 3d418f1e
class_net/class-0-bn-3/FusedBatchNormV3:0: 3d33c07e
box_net/box-0-bn-3/FusedBatchNormV3:0: 3d2d41eb
fpn_cells/cell_6/fnode4/op_after_combine9/conv/separable_conv2d/depthwise:0: 3bfcd223
class_net/Relu6:0: 3d418f1e
box_net/Relu6:0: 3d418f1e
fpn_cells/cell_6/fnode4/op_after_combine9/conv/BiasAdd:0: 3bec3090
class_net/class-1/separable_conv2d/depthwise:0: 3bc9c632
box_net/box-1/separable_conv2d/depthwise:0: 3bab5530
fpn_cells/cell_6/fnode4/op_after_combine9/bn/FusedBatchNormV3:0: 3d4cfa43
class_net/class-1/BiasAdd:0: 3b6f21bb
box_net/box-1/BiasAdd:0: 3b28ccf9
fpn_cells/cell_6/fnode5/resample_2_9_10/max_pooling2d_27/MaxPool:0: 3d4cfa43
class_net/class-0_1/separable_conv2d/depthwise:0: 3c1a9177
box_net/box-0_1/separable_conv2d/depthwise:0: 3bf6fbcc
class_net/class-1-bn-3/FusedBatchNormV3:0: 3d224eea
box_net/box-1-bn-3/FusedBatchNormV3:0: 3d72719d
fpn_cells/cell_6/fnode5/add_n/add_1:0: 3d733055
class_net/class-0_1/BiasAdd:0: 3baa254d
box_net/box-0_1/BiasAdd:0: 3b3db3d3
class_net/Relu6_1:0: 3d257efe
box_net/Relu6_1:0: 3d418f1e
fpn_cells/cell_6/fnode5/op_after_combine10/Relu6:0: 3d418f1e
class_net/class-0-bn-4/FusedBatchNormV3:0: 3d2e9b78
box_net/box-0-bn-4/FusedBatchNormV3:0: 3d372054
class_net/class-2/separable_conv2d/depthwise:0: 3be3fedd
box_net/box-2/separable_conv2d/depthwise:0: 3bd96547
fpn_cells/cell_6/fnode5/op_after_combine10/conv/separable_conv2d/depthwise:0: 3bfd6f68
class_net/Relu6_4:0: 3d3a0000
box_net/Relu6_4:0: 3d418f1e
class_net/class-2/BiasAdd:0: 3b80e630
box_net/box-2/BiasAdd:0: 3b384bfd
fpn_cells/cell_6/fnode5/op_after_combine10/conv/BiasAdd:0: 3ba94e3a
class_net/class-1_1/separable_conv2d/depthwise:0: 3bb8543b
box_net/box-1_1/separable_conv2d/depthwise:0: 3bc07659
class_net/class-2-bn-3/FusedBatchNormV3:0: 3d434755
box_net/box-2-bn-3/FusedBatchNormV3:0: 3d53b899
fpn_cells/cell_6/fnode5/op_after_combine10/bn/FusedBatchNormV3:0: 3d57e4ae
class_net/class-1_1/BiasAdd:0: 3b681376
box_net/box-1_1/BiasAdd:0: 3b156289
class_net/Relu6_2:0: 3d418f1e
box_net/Relu6_2:0: 3d418f1e
fpn_cells/cell_6/fnode6/resample_2_10_11/max_pooling2d_28/MaxPool:0: 3d57e4ae
class_net/class-0_2/separable_conv2d/depthwise:0: 3c174438
box_net/box-0_2/separable_conv2d/depthwise:0: 3c04f27d
class_net/class-1-bn-4/FusedBatchNormV3:0: 3d30b276
box_net/box-1-bn-4/FusedBatchNormV3:0: 3d27b201
class_net/class-3/separable_conv2d/depthwise:0: 3c2cdb86
box_net/box-3/separable_conv2d/depthwise:0: 3ba62639
fpn_cells/cell_6/fnode6/add_n/add_1:0: 3d7881c9
class_net/class-0_2/BiasAdd:0: 3ba658cc
box_net/box-0_2/BiasAdd:0: 3b4bc030
class_net/Relu6_5:0: 3d307c57
box_net/Relu6_5:0: 3d2bab32
class_net/class-3/BiasAdd:0: 3bcf9b7e
box_net/box-3/BiasAdd:0: 3b4dfc7f
fpn_cells/cell_6/fnode6/op_after_combine11/Relu6:0: 3d431250
class_net/class-0-bn-5/FusedBatchNormV3:0: 3d2f9f70
box_net/box-0-bn-5/FusedBatchNormV3:0: 3d3151cb
class_net/class-2_1/separable_conv2d/depthwise:0: 3bc95e2c
box_net/box-2_1/separable_conv2d/depthwise:0: 3bc48486
class_net/class-3-bn-3/FusedBatchNormV3:0: 3dab3cd4
box_net/box-3-bn-3/FusedBatchNormV3:0: 3d41d4a3
fpn_cells/cell_6/fnode6/op_after_combine11/conv/separable_conv2d/depthwise:0: 3bb1a310
class_net/Relu6_8:0: 3d418f1e
box_net/Relu6_8:0: 3d418f1e
class_net/class-2_1/BiasAdd:0: 3b84ddc7
box_net/box-2_1/BiasAdd:0: 3b12b412
class_net/Relu6_3:0: 3d418f1e
box_net/Relu6_3:0: 3d418f1e
fpn_cells/cell_6/fnode6/op_after_combine11/conv/BiasAdd:0: 3b2b31f0
class_net/class-1_2/separable_conv2d/depthwise:0: 3baa7561
box_net/box-1_2/separable_conv2d/depthwise:0: 3ba9c17e
class_net/class-2-bn-4/FusedBatchNormV3:0: 3d3d1fdf
box_net/box-2-bn-4/FusedBatchNormV3:0: 3d47554b
class_net/class-predict/separable_conv2d/depthwise:0: 3da63c1b
box_net/box-predict/separable_conv2d/depthwise:0: 3c495545
fpn_cells/cell_6/fnode6/op_after_combine11/bn/FusedBatchNormV3:0: 3cf09a83
class_net/class-1_2/BiasAdd:0: 3b58f512
box_net/box-1_2/BiasAdd:0: 3b115e8f
class_net/Relu6_6:0: 3d418f1e
box_net/Relu6_6:0: 3d418f1e
class_net/class-predict/BiasAdd:0: 3dc3c318
box_net/box-predict/BiasAdd:0: 3c9e0d7c
fpn_cells/cell_6/fnode7/resample_1_11_12/max_pooling2d_29/MaxPool:0: 3cf09a83
class_net/class-0_3/separable_conv2d/depthwise:0: 3bc44773
box_net/box-0_3/separable_conv2d/depthwise:0: 3bad3800
class_net/class-1-bn-5/FusedBatchNormV3:0: 3d2a8477
box_net/box-1-bn-5/FusedBatchNormV3:0: 3d1ef1cf
class_net/class-3_1/separable_conv2d/depthwise:0: 3c141cd5
box_net/box-3_1/separable_conv2d/depthwise:0: 3b9b2059
class_net/class-predict/BiasAdd__2900:0: 3dc3c318
box_net/box-predict/BiasAdd__2956:0: 3c9e0d7c
fpn_cells/cell_6/fnode7/add_n/add:0: 3d0eb644
class_net/class-0_3/BiasAdd:0: 3b4d674f
box_net/box-0_3/BiasAdd:0: 3af92990
class_net/Relu6_9:0: 3d2604e5
box_net/Relu6_9:0: 3d2c76ed
class_net/class-3_1/BiasAdd:0: 3bb75a5d
box_net/box-3_1/BiasAdd:0: 3b381e2b
Reshape:0: 3dc3c318
Reshape_1:0: 3c9de660
fpn_cells/cell_6/fnode7/op_after_combine12/Relu6:0: 3d1251fb
class_net/class-0-bn-6/FusedBatchNormV3:0: 3cfc6363
box_net/box-0-bn-6/FusedBatchNormV3:0: 3ce72a48
class_net/class-2_2/separable_conv2d/depthwise:0: 3bc2785d
box_net/box-2_2/separable_conv2d/depthwise:0: 3bb5552e
class_net/class-3-bn-4/FusedBatchNormV3:0: 3db700f7
box_net/box-3-bn-4/FusedBatchNormV3:0: 3d3bd14d
fpn_cells/cell_6/fnode7/op_after_combine12/conv/separable_conv2d/depthwise:0: 3b4cc566
class_net/Relu6_12:0: 3d0199ae
box_net/Relu6_12:0: 3cf8601b
class_net/class-2_2/BiasAdd:0: 3b76f4e4
box_net/box-2_2/BiasAdd:0: 3b089498
class_net/Relu6_7:0: 3d418f1e
box_net/Relu6_7:0: 3d42fc1e
fpn_cells/cell_6/fnode7/op_after_combine12/conv/BiasAdd:0: 3a427ad5
class_net/class-1_3/separable_conv2d/depthwise:0: 3b763f83
box_net/box-1_3/separable_conv2d/depthwise:0: 3b81e601
class_net/class-2-bn-5/FusedBatchNormV3:0: 3d2a7b4f
box_net/box-2-bn-5/FusedBatchNormV3:0: 3d3a407e
class_net/class-predict_1/separable_conv2d/depthwise:0: 3d7a9d54
box_net/box-predict_1/separable_conv2d/depthwise:0: 3c2125ee
fpn_cells/cell_6/fnode7/op_after_combine12/bn/FusedBatchNormV3:0: 3c5c276b
class_net/class-1_3/BiasAdd:0: 3b036657
box_net/box-1_3/BiasAdd:0: 3ac68aea
class_net/Relu6_10:0: 3d418f1e
box_net/Relu6_10:0: 3d418f1e
class_net/class-predict_1/BiasAdd:0: 3daf73c1
box_net/box-predict_1/BiasAdd:0: 3c2e2052
class_net/class-0_4/separable_conv2d/depthwise:0: 3b4e52d5
box_net/box-0_4/separable_conv2d/depthwise:0: 3b373fe2
class_net/class-1-bn-6/FusedBatchNormV3:0: 3ce02c68
box_net/box-1-bn-6/FusedBatchNormV3:0: 3cec52b2
class_net/class-3_2/separable_conv2d/depthwise:0: 3bdec473
box_net/box-3_2/separable_conv2d/depthwise:0: 3b8d88c9
class_net/class-predict_1/BiasAdd__2796:0: 3daf73c1
box_net/box-predict_1/BiasAdd__2848:0: 3c2e2052
class_net/class-0_4/BiasAdd:0: 3ac92582
box_net/box-0_4/BiasAdd:0: 3a62ae7e
class_net/Relu6_13:0: 3d010de8
box_net/Relu6_13:0: 3cfdf4f9
class_net/class-3_2/BiasAdd:0: 3ba8758c
box_net/box-3_2/BiasAdd:0: 3b37d269
Reshape_2:0: 3dc3c318
Reshape_3:0: 3c9de660
class_net/class-0-bn-7/FusedBatchNormV3:0: 3cafcd5b
box_net/box-0-bn-7/FusedBatchNormV3:0: 3c8d7160
class_net/class-2_3/separable_conv2d/depthwise:0: 3b81dbb3
box_net/box-2_3/separable_conv2d/depthwise:0: 3b9f4570
class_net/class-3-bn-5/FusedBatchNormV3:0: 3dad7f09
box_net/box-3-bn-5/FusedBatchNormV3:0: 3d1c3430
class_net/Relu6_16:0: 3cb99a8e
box_net/Relu6_16:0: 3c950ae1
class_net/class-2_3/BiasAdd:0: 3b1b3062
box_net/box-2_3/BiasAdd:0: 3acac669
class_net/Relu6_11:0: 3d418f1e
box_net/Relu6_11:0: 3d0ea35c
class_net/class-1_4/separable_conv2d/depthwise:0: 3b5433f6
box_net/box-1_4/separable_conv2d/depthwise:0: 3b56bf4a
class_net/class-2-bn-6/FusedBatchNormV3:0: 3cfc2d58
box_net/box-2-bn-6/FusedBatchNormV3:0: 3d15c7aa
class_net/class-predict_2/separable_conv2d/depthwise:0: 3e43ee43
box_net/box-predict_2/separable_conv2d/depthwise:0: 3bd16d79
class_net/class-1_4/BiasAdd:0: 3ae964e0
box_net/box-1_4/BiasAdd:0: 3a86e97c
class_net/Relu6_14:0: 3d10252e
box_net/Relu6_14:0: 3d19d04a
class_net/class-predict_2/BiasAdd:0: 3d97da7d
box_net/box-predict_2/BiasAdd:0: 3c0f06a6
class_net/class-1-bn-7/FusedBatchNormV3:0: 3cc538ca
box_net/box-1-bn-7/FusedBatchNormV3:0: 3cb65e88
class_net/class-3_3/separable_conv2d/depthwise:0: 3bce3f46
box_net/box-3_3/separable_conv2d/depthwise:0: 3b6ada9f
class_net/class-predict_2/BiasAdd__2692:0: 3d97da7d
box_net/box-predict_2/BiasAdd__2744:0: 3c0f06a6
class_net/Relu6_17:0: 3cc43ca8
box_net/Relu6_17:0: 3cb90b9d
class_net/class-3_3/BiasAdd:0: 3b6b3b2b
box_net/box-3_3/BiasAdd:0: 3b102217
Reshape_4:0: 3dc3c318
Reshape_5:0: 3c9de660
class_net/class-2_4/separable_conv2d/depthwise:0: 3b8309e1
box_net/box-2_4/separable_conv2d/depthwise:0: 3bb8398c
class_net/class-3-bn-6/FusedBatchNormV3:0: 3d9b597f
box_net/box-3-bn-6/FusedBatchNormV3:0: 3cd74fea
class_net/class-2_4/BiasAdd:0: 3b02f1f2
box_net/box-2_4/BiasAdd:0: 3aa04915
class_net/Relu6_15:0: 3d418f1e
box_net/Relu6_15:0: 3cca9597
class_net/class-2-bn-7/FusedBatchNormV3:0: 3d0b38ff
box_net/box-2-bn-7/FusedBatchNormV3:0: 3cea2b6e
class_net/class-predict_3/separable_conv2d/depthwise:0: 3e262f08
box_net/box-predict_3/separable_conv2d/depthwise:0: 3bb4bd64
class_net/Relu6_18:0: 3d1619e1
box_net/Relu6_18:0: 3cf93629
class_net/class-predict_3/BiasAdd:0: 3d95fe0a
box_net/box-predict_3/BiasAdd:0: 3bbe45e3
class_net/class-3_4/separable_conv2d/depthwise:0: 3be4dd4e
box_net/box-3_4/separable_conv2d/depthwise:0: 3b65a41d
class_net/class-predict_3/BiasAdd__2588:0: 3d95fe0a
box_net/box-predict_3/BiasAdd__2640:0: 3bbe45e3
class_net/class-3_4/BiasAdd:0: 3b600d8d
box_net/box-3_4/BiasAdd:0: 3af0eaa2
Reshape_6:0: 3dc3c318
Reshape_7:0: 3c9de660
class_net/class-3-bn-7/FusedBatchNormV3:0: 3d8865a0
box_net/box-3-bn-7/FusedBatchNormV3:0: 3cc4b986
class_net/Relu6_19:0: 3d418f1e
box_net/Relu6_19:0: 3cc99f57
class_net/class-predict_4/separable_conv2d/depthwise:0: 3e11f60a
box_net/box-predict_4/separable_conv2d/depthwise:0: 3bbf2488
class_net/class-predict_4/BiasAdd:0: 3d8e5bbc
box_net/box-predict_4/BiasAdd:0: 3bbf5757
class_net/class-predict_4/BiasAdd__2484:0: 3d8e5bbc
box_net/box-predict_4/BiasAdd__2536:0: 3bbf5757
Reshape_8:0: 3dc3c318
Reshape_9:0: 3c9de660
concat:0: 3dc3c318
concat_1:0: 3c9de660
unstack:0: 3bf6c69f
unstack:1: 3b9c59f4
unstack:2: 3cadf607
unstack:3: 3ca33f4c
nms/class_net_sigmoid:0_1: 3a5cc06d
unstack__2961:0: 3ca33f4c
unstack__2960:0: 3cadf607
unstack__2959:0: 3b9c59f4
unstack__2958:0: 3bf6c69f
Exp:0: 3cb89d5d
Exp_1:0: 3cef151a
(Unnamed Layer* 765) [Constant]_output: 40661405
mul_5:0: 3f8fc464
(Unnamed Layer* 767) [Constant]_output: 40661405
mul_4:0: 3f7f0320
(Unnamed Layer* 769) [Constant]_output: 40661405
mul_2:0: 40b9f087
(Unnamed Layer* 771) [Constant]_output: 40661405
mul_3:0: 40bc3956
(Unnamed Layer* 773) [Constant]_output: 40a04a85
add_6:0: 40ab39ff
(Unnamed Layer* 775) [Constant]_output: 40a04a85
add_5:0: 40a0c6d9
(Unnamed Layer* 778) [Shuffle]_output: 3b810a14
truediv_7:0: 4039f087
(Unnamed Layer* 781) [Shuffle]_output: 3b810a14
truediv_6:0: 403c3956
sub_5:0: 40a0a653
add_8:0: 40d9e16a
sub_4:0: 40a1dc7e
add_7:0: 40cce81e
stack_2_Unsqueeze__2963:0: 40cce81e
stack_2_Unsqueeze__2965:0: 40cce81e
stack_2_Unsqueeze__2962:0: 40cce81e
stack_2_Unsqueeze__2964:0: 40cce81e
stack_2_Concat__2966:0: 40cce81e
nms/box_net_reshape:0_0: 40cce81e
num_detections: 4092952a
detection_boxes: 40a175ca
detection_scores: 3b7f50d3
detection_classes: 3f76b326
